00000000
00000100
11111100
00000101
11111011
11111010
11110001
00010000
11101111
00010011
00010100
00010101
11101000
11101000
00011010
00011011
00011110
11100001
11100000
00100001
11011111
00100010
11011110
00100011
00100110
00101001
00101010
00101010
11001011
00110101
00110111
11001000
11000111
11000111
10111111
01000101
01000101
10110111
01001100
10110011
10110010
01001111
10110000
10101111
10101110
10101110
01010111
10101001
10100101
01011110
10100000
10011111
01100010
01100011
01100101
10010100
01110001
01110100
01110100
01111000
10000111
01111010
01111100
10000000
